conv0_param_0 24.18684268789693
conv1/dw_param_0 20.16030275314705
conv1_param_0 24.53229129227988
conv2/dw_param_0 16.355035610224977
conv2_param_0 48.621879145181246
conv3/dw_param_0 18.854737249273544
conv3_param_0 50.43326109329569
conv4/dw_param_0 86.62633001527614
conv4_param_0 70.21539660457334
conv5/dw_param_0 18.556650958139347
conv5_param_0 111.25834980768609
conv6/dw_param_0 34.30190674043714
conv6_param_0 109.71090370782294
conv7/dw_param_0 21.851538223862452
conv7_param_0 139.92977145157573
conv8/dw_param_0 23.948490904568875
conv8_param_0 98.05751407671262
conv9/dw_param_0 31.40504870560946
conv9_param_0 72.08329226850074
conv10/dw_param_0 36.74901774675372
conv10_param_0 79.31841360971363
conv11/dw_param_0 25.98178376021843
conv11_param_0 112.22525421389889
conv12/dw_param_0 21.639249301598817
conv12_param_0 122.98452663423414
conv13/dw_param_0 5.040464472088132
conv13_param_0 65.10206764667079
conv16/dw_param_0 3.0639180115443514
conv16_param_0 559.5269053715156
conv17/dw_param_0 11.52061413214714
conv17_param_0 443.54723304759347
conv18/dw_param_0 50.197174906718395
conv18_param_0 310.0241792521306
conv20_param_0 112.6082031712852
conv21_param_0 112.83335209735317
conv0 254.61834948653907
conv1/dw 11.295322083356915
conv1 22.041643250996234
conv2/dw 5.8844516169342045
conv2 18.92579165695787
conv3/dw 7.0002411811247605
conv3 4.478943449606816
conv4/dw 4.925724648706416
conv4 18.44771994557233
conv5/dw 9.690795335297476
conv5 14.898500964766574
conv6/dw 9.972429031561921
conv6 20.608600342084856
conv7/dw 10.64713720907307
conv7 13.865641122945322
conv8/dw 14.921970287961306
conv8 19.06843972341196
conv9/dw 12.993134240955923
conv9 23.428441197119035
conv10/dw 9.320493967609906
conv10 19.072971408556683
conv11/dw 8.90357569423504
conv11 23.343285150669583
conv12/dw 8.636183542339719
conv12 22.940948325237198
conv13/dw 8.072187721280041
conv13 7.4529340606135195
conv16/dw 3.164944644051979
conv16 5.700619852113533
conv17/dw 8.636183542339719
conv17 7.447478977697321
conv18/dw 7.245884506743133
conv18 7.282120754172506
conv20 10.038476671449631
conv21 8.660833417148273
